{"<s>":0,"<pad>":1,"</s>":2,"<unk>":3,"<mask>":4,"<animal>":5,"</animal>":6,"<breed>":7,"</breed>":8,"<category>":9,"</category>":10,"<question>":11,"</question>":12,"<answer>":13,"</answer>":14,"!":15,"\"":16,"#":17,"$":18,"%":19,"&":20,"'":21,"(":22,")":23,"*":24,"+":25,",":26,"-":27,".":28,"/":29,"0":30,"1":31,"2":32,"3":33,"4":34,"5":35,"6":36,"7":37,"8":38,"9":39,":":40,";":41,"<":42,"=":43,">":44,"?":45,"@":46,"A":47,"B":48,"C":49,"D":50,"E":51,"F":52,"G":53,"H":54,"I":55,"J":56,"K":57,"L":58,"M":59,"N":60,"O":61,"P":62,"Q":63,"R":64,"S":65,"T":66,"U":67,"V":68,"W":69,"X":70,"Y":71,"Z":72,"[":73,"\\":74,"]":75,"^":76,"_":77,"`":78,"a":79,"b":80,"c":81,"d":82,"e":83,"f":84,"g":85,"h":86,"i":87,"j":88,"k":89,"l":90,"m":91,"n":92,"o":93,"p":94,"q":95,"r":96,"s":97,"t":98,"u":99,"v":100,"w":101,"x":102,"y":103,"z":104,"{":105,"|":106,"}":107,"~":108,"¡":109,"¢":110,"£":111,"¤":112,"¥":113,"¦":114,"§":115,"¨":116,"©":117,"ª":118,"«":119,"¬":120,"®":121,"¯":122,"°":123,"±":124,"²":125,"³":126,"´":127,"µ":128,"¶":129,"·":130,"¸":131,"¹":132,"º":133,"»":134,"¼":135,"½":136,"¾":137,"¿":138,"À":139,"Á":140,"Â":141,"Ã":142,"Ä":143,"Å":144,"Æ":145,"Ç":146,"È":147,"É":148,"Ê":149,"Ë":150,"Ì":151,"Í":152,"Î":153,"Ï":154,"Ð":155,"Ñ":156,"Ò":157,"Ó":158,"Ô":159,"Õ":160,"Ö":161,"×":162,"Ø":163,"Ù":164,"Ú":165,"Û":166,"Ü":167,"Ý":168,"Þ":169,"ß":170,"à":171,"á":172,"â":173,"ã":174,"ä":175,"å":176,"æ":177,"ç":178,"è":179,"é":180,"ê":181,"ë":182,"ì":183,"í":184,"î":185,"ï":186,"ð":187,"ñ":188,"ò":189,"ó":190,"ô":191,"õ":192,"ö":193,"÷":194,"ø":195,"ù":196,"ú":197,"û":198,"ü":199,"ý":200,"þ":201,"ÿ":202,"Ā":203,"ā":204,"Ă":205,"ă":206,"Ą":207,"ą":208,"Ć":209,"ć":210,"Ĉ":211,"ĉ":212,"Ċ":213,"ċ":214,"Č":215,"č":216,"Ď":217,"ď":218,"Đ":219,"đ":220,"Ē":221,"ē":222,"Ĕ":223,"ĕ":224,"Ė":225,"ė":226,"Ę":227,"ę":228,"Ě":229,"ě":230,"Ĝ":231,"ĝ":232,"Ğ":233,"ğ":234,"Ġ":235,"ġ":236,"Ģ":237,"ģ":238,"Ĥ":239,"ĥ":240,"Ħ":241,"ħ":242,"Ĩ":243,"ĩ":244,"Ī":245,"ī":246,"Ĭ":247,"ĭ":248,"Į":249,"į":250,"İ":251,"ı":252,"Ĳ":253,"ĳ":254,"Ĵ":255,"ĵ":256,"Ķ":257,"ķ":258,"ĸ":259,"Ĺ":260,"ĺ":261,"Ļ":262,"ļ":263,"Ľ":264,"ľ":265,"Ŀ":266,"ŀ":267,"Ł":268,"ł":269,"Ń":270,"an":271,"</":272,"al":273,"Ġ<":274,"ed":275,"re":276,"at":277,"on":278,"er":279,"es":280,"en":281,"ion":282,"go":283,"bre":284,"breed":285,"qu":286,"tion":287,"ry":288,"cat":289,"ego":290,"im":291,"sw":292,"anim":293,"answ":294,"estion":295,"question":296,"catego":297,"animal":298,"answer":299,"category":300,"Ġf":301,"in":302,"Ġd":303,"and":304,".</":305,"?</":306,"čĊ":307,"Ġand":308,"ar":309,"ic":310,"ow":311,"ep":312,"Ġc":313,"is":314,"ent":315,"it":316,"Ġp":317,"arm":318,"gen":319,"eral":320,"general":321,"ff":322,"Wh":323,"ra":324,"eed":325,"Ġfeed":326,"Ġfarm":327,"What":328,"as":329,"Ġb":330,"ing":331,"epal":332,"ise":333,"em":334,"Ġm":335,"Ġon":336,"Ġdo":337,"ck":338,"ric":339,"ali":340,"of":341,"th":342,"ĠN":343,"Ġin":344,"alij":345,"Ġdise":346,"Ġdiseas":347,"Ġbreed":348,"Ġa":349,"Ġl":350,"ement":351,"st":352,"row":353,"Ġpr":354,"ost":355,"ĠNepal":356,"Ġdiseases":357,"How":358,"Ġh":359,"ds":360,"ends":361,"Ġdep":362,"Ġdepends":363,"ient":364,"icient":365,"fficient":366,"Ġg":367,"Ġe":368,"fes":369,"ifes":370,"pan":371,"Ġlifes":372,"Ġlifespan":373,"Ġre":374,"Ġof":375,"Ġgo":376,"Ġra":377,"rich":378,"ostrich":379,"bb":380,"bbit":381,"uff":382,"alo":383,"uffalo":384,"hic":385,"ken":386,"hicken":387,"kalij":388,"uck":389,"ig":390,"nepal":391,"ou":392,"ers":393,"ct":394,"va":395,"Ġva":396,"ation":397,"Ġfarming":398,"ag":399,"anag":400,"Ġmanag":401,"Ġmanagement":402,"Ġis":403,"Ġth":404,"Ġthe":405,"cc":406,"wit":407,"Ġwit":408,"Ġcan":409,"Ġbe":410,"Ġwith":411,"Ġpro":412,"ire":413,"et":414,"ket":415,"arket":416,"Ġmarket":417,"di":418,"ein":419,"od":420,"ly":421,"Co":422,"lu":423,"eng":424,"ect":425,"ffect":426,"Ġaffect":427,"Ġfas":428,"Ġgrow":429,"Ġfast":430,"Efficient":431,"are":432,"sing":433,"quire":434,"Ġcare":435,"Ġfeeding":436,"Ġhou":437,"Ġrequire":438,"Ġgood":439,"Ġhousing":440,"Ġrequires":441,"Grow":442,"Ġqu":443,"alit":444,"Growth":445,"Ġqualit":446,"Ġquality":447,"ondi":448,"tions":449,"Ġcondi":450,"Ġconditions":451,"gi":452,"mm":453,"vent":454,"ygi":455,"revent":456,"ene":457,"ination":458,"Ġprevent":459,"Ġhygi":460,"Ġvacc":461,"Comm":462,"Ġprevented":463,"Ġhygiene":464,"Ġvaccination":465,"Common":466,"to":467,"Ġto":468,"fficiently":469,"Ġefficiently":470,"Ġraise":471,"Ġfarms":472,"Ġeat":473,"ced":474,"lement":475,"pp":476,"su":477,"tein":478,"Ġsu":479,"anced":480,"alanced":481,"Ġfed":482,"ins":483,"rains":484,"Ġbalanced":485,"Ġare":486,"Ġgrains":487,"Ġprotein":488,"lements":489,"pplements":490,"Ġsupplements":491,"ant":492,"ĠR":493,"cow":494,"goat":495,"rabbit":496,"buffalo":497,"chicken":498,"duck":499,"pig":500,"hal":501,"leng":502,"halleng":503,"hallenges":504,"Ġfarmers":505,"Farm":506,"ab":507,"le":508,"itab":509,"ofitab":510,"Ġprofitab":511,"Ġprofitable":512,"Ġostrich":513,"Ġcow":514,"Ġgoat":515,"Ġbuffalo":516,"Kalij":517,"eas":518,"heas":519,"Ġkalij":520,"Ġpheas":521,"Ġpheasant":522,"Ġchicken":523,"Ġrabbit":524,"Ġduck":525,"Ġpig":526,"am":527,"rn":528,"Is":529,"ce":530,"oc":531,"ur":532,"eck":533,"ĠNeck":534,"Bl":535,"ack":536,"Black":537,"un":538,"ish":539,"orn":540,"amp":541,"Pric":542,"gion":543,"Ġdem":544,"Ġby":545,"Ġregion":546,"Ġvary":547,"Prices":548,"Ġdemand":549,"Challenges":550,"clu":551,"de":552,"uation":553,"Ġflu":554,"Ġcost":555,"Ġinclu":556,"Ġdisease":557,"ctuation":558,"Ġfluctuation":559,"Ġinclude":560,"Ġfluctuations":561,"ace":562,"Ġface":563,"Ġchallenges":564,"Ġpric":565,"Ġprice":566,"ai":567,"ces":568,"ran":569,"rces":570,"se":571,"sou":572,"ten":573,"use":574,"ze":575,"Ġuse":576,"Ġbran":577,"Ġmai":578,"Ġloc":579,"Ġresou":580,"Ġoften":581,"Farmers":582,"Ġmaize":583,"Ġlocal":584,"Ġresources":585,"per":586,"ess":587,"Ġacc":588,"Ġproper":589,"Farming":590,"Ġaccess":591,"Mur":592,"rah":593,"Murrah":594,"hire":595,"shire":596,"Ni":597,"av":598,"li":599,"ĠRav":600,"Nili":601,"ĠRavi":602,"Red":603,"Af":604,"ĠBlack":605,"rican":606,"African":607,"Jers":608,"ey":609,"Jersey":610,"Brow":611,"Sw":612,"ĠSw":613,"iss":614,"Brown":615,"ĠSwiss":616,"Pe":617,"kin":618,"Pekin":619,"Fl":620,"Gi":621,"ĠGi":622,"emish":623,"Flemish":624,"ĠGiant":625,"Ho":626,"lst":627,"Holst":628,"Holstein":629,"Blu":630,"Blue":631,"Cali":632,"forn":633,"ian":634,"Californ":635,"Californian":636,"In":637,"ner":638,"dian":639,"ĠRun":640,"Indian":641,"ĠRunner":642,"Ne":643,"Ze":644,"ĠWh":645,"ĠZe":646,"aland":647,"ite":648,"New":649,"ĠWhite":650,"ĠZealand":651,"Camp":652,"Kh":653,"ak":654,"be":655,"ll":656,"ĠCamp":657,"Khak":658,"bell":659,"ĠCampbell":660,"Khaki":661,"Beng":662,"ĠBeng":663,"ĠBengal":664,"Hamp":665,"Hampshire":666,"Rh":667,"land":668,"ĠIs":669,"ode":670,"ĠRed":671,"Rhode":672,"ĠIsland":673,"Ply":674,"mou":675,"ock":676,"ĠRock":677,"Plymou":678,"Plymouth":679,"Sa":680,"anen":681,"Saanen":682,"Jam":683,"ap":684,"ari":685,"unap":686,"Jamunap":687,"Jamunapari":688,"Corn":689,"Cornish":690,"Bo":691,"Boer":692,"Le":693,"gh":694,"Legh":695,"Leghorn":696,"Land":697,"race":698,"Landrace":699,"Ber":700,"kshire":701,"Berkshire":702,"Dur":703,"Duroc":704}